fa f4 0f 0a f4 f4 ff 12 1c 12 e7 ef ed de 0a 09 0a de 05 21 1b 13 0c 0c 0d 02 f8 0b 02 f7 ff 02 04 00 0b f0 00 c8 e7 06 da ee f3 06 e2 f4 fa 23 06 e4 fc f5 11 f9 09 f5 18 16 1a 0f 0a 17 d5 f8 2b 08 0b d2 04 19 0a 16 df f2 ea
12 03 fd cc f7 15 ea 06 d3 f0 eb f4 00 e6 fa d2 05 fb 01 fe 00 05 fa 13 1d 08 ed d9 f4 0a 1a e8 11 02 e2 fb f4 0d d5 ec 07 f0 ef ea 1a 2b ef ec 2e 28 f8 10 13 15 26 fb c5 5d ee 13 e5 e9 2e 01 f9 ef fe 43 d4 f7 0c f7 f2 04 10
0d 19 1f 15 ee 1e 0e 18 0d cb f2 fb e4 e0 03 ec f5 0a 03 49 18 01 02 13 2f 04 02 0b ee f3 1a 0f fb f8 f4 2e 11 07 f5 ff 08 f9 09 fa 09 f2 e5 0f 26 42 f3 07 07 f4 ff e2 de fb 15 0e da d1 e0 0b 13 00 10 2d f8 ef 1b 11 d4 00 ea
06 20 00 fb d8 08 0d fb f1 ec f7 1c 0e 16 0a 0b 1a fa ee dc f7 f0 f4 00 ee 20 18 1d 04 09 14 00 01 fd fb fd 05 16 02 07 2f ff 0b 0a 14 16 29 13 09 da 18 fa 0f 18 16 d4 ac e6 0b 00 dd f8 17 f8 f8 e5 f9 ec 0b 05 ed df db 11 07
09 0e da ec f6 f5 de d7 c9 f8 0c 18 11 f4 07 1c 01 1a 1a 03 01 e1 f2 fa e6 02 f7 dc e3 1e f7 ff d9 f5 ee 15 07 06 05 ff f5 0f 1d 01 04 eb ec d4 f3 13 fb 1c 2b 19 27 0b 2a 0b 25 10 23 26 de 29 ff 19 d4 fe f9 fb f5 ec 1e f2 01
f1 f9 06 10 2b ee 07 05 1e 4f 12 08 14 21 14 1a 07 f6 ef d4 13 fa fa f7 fb fa 0a 00 0e 00 d9 fb 06 0d 00 f1 02 01 1c 0b 2d fb 05 07 05 05 2e 16 f6 f9 17 00 e6 ff e2 05 23 fb c9 b3 0f 19 e9 ed e5 ea dc ef 02 00 f0 e3 09 19 1c
fa e4 ef 1c 33 dd ce d4 27 17 e2 da f7 12 fa 18 eb f9 03 11 01 12 23 19 09 ed dc f4 e9 ef ec e4 de 0e 0c dc f1 1c 28 21 d2 f1 08 20 f0 d1 00 1d 02 f6 05 07 05 fb ef 14 09 eb db f6 0e 17 03 dc ff 17 19 00 1b 07 fe 24 0b 0a f9
29 31 0f 00 03 1e ff 2f 0b f2 02 f2 02 0d e3 08 e5 f2 11 05 cc e0 07 e7 e0 14 25 01 11 02 2a 25 07 11 0d 32 0c c5 07 03 0d ff f6 04 11 fb d4 d4 d2 dd 00 f7 e2 fe 03 0e f8 ef 08 07 e6 e0 fa 25 0e 02 fa 03 13 f8 f4 f0 29 da e2
f4 fe 0e 07 15 08 21 f6 fa fa 0b fb ef 1b 19 f1 f5 0f f6 f7 15 00 f5 fb f9 f9 00 18 00 0d 00 f5 06 f8 12 fb 08 1f 06 f7 fd ef fd fb 1e d8 ec 1b 0c fe f0 ec 0d 0d 02 23 27 dd ea 05 08 f0 1b f8 ff f7 f8 00 ed ea 21 19 03 1d 0c
c9 df 09 08 f0 fc 10 f0 16 f1 1f 10 1c fd e0 19 11 1f e8 ca f1 f5 ff e9 f1 f7 05 3b 1b f3 f4 f1 01 0d fa d1 07 0c 0e fc ea 30 f1 db c1 03 08 ea e2 0d e2 df ec d6 f4 03 fe ef 16 0c 31 05 fe 26 12 02 d7 f7 ff 0d e8 ee f7 dd 17
